{
    "<PAD>": 0,
    "<UNK>": 1,
    "<BOS>": 2,
    "<EOS>": 3,
    " ": 4,
    "$": 5,
    "%": 6,
    "&": 7,
    "'": 8,
    "(": 9,
    ")": 10,
    "+": 11,
    ",": 12,
    "-": 13,
    ".": 14,
    "/": 15,
    "0": 16,
    "1": 17,
    "2": 18,
    "3": 19,
    "4": 20,
    "5": 21,
    "6": 22,
    "7": 23,
    "8": 24,
    "9": 25,
    ":": 26,
    ";": 27,
    "</w>": 28,
    "@": 29,
    "a": 30,
    "b": 31,
    "c": 32,
    "d": 33,
    "e": 34,
    "f": 35,
    "g": 36,
    "h": 37,
    "i": 38,
    "j": 39,
    "k": 40,
    "l": 41,
    "m": 42,
    "n": 43,
    "o": 44,
    "p": 45,
    "q": 46,
    "r": 47,
    "s": 48,
    "t": 49,
    "u": 50,
    "v": 51,
    "w": 52,
    "x": 53,
    "y": 54,
    "z": 55,
    "|": 56,
    "–": 57,
    "—": 58,
    "’": 59,
    "•": 60,
    "s</w>": 61,
    "e</w>": 62,
    "d</w>": 63,
    "er": 64,
    "in": 65,
    "en": 66,
    "an": 67,
    "at": 68,
    "on": 69,
    "or": 70,
    "al": 71,
    ",</w>": 72,
    "t</w>": 73,
    "es": 74,
    ".</w>": 75,
    "ed</w>": 76,
    "lo": 77,
    "g</w>": 78,
    "and</w>": 79,
    "ce</w>": 80,
    "ion": 81,
    "ing</w>": 82,
    "for": 83,
    "•</w>": 84,
    "to": 85,
    "es</w>": 86,
    "ro": 87,
    "ar": 88,
    "men": 89,
    "mp": 90,
    "per": 91,
    "de": 92,
    "it": 93,
    "re": 94,
    "ex": 95,
    "ation": 96,
    "ts</w>": 97,
    "sal": 98,
    "y</w>": 99,
    "ic": 100,
    "co": 101,
    "us": 102,
    "to</w>": 103,
    ":</w>": 104,
    "force</w>": 105,
    "le": 106,
    "h</w>": 107,
    "sales": 108,
    "salesforce</w>": 109,
    "il": 110,
    "ien": 111,
    "pro": 112,
    "ig": 113,
    "a</w>": 114,
    "st": 115,
    "ve": 116,
    "ec": 117,
    "-</w>": 118,
    "er</w>": 119,
    "ap": 120,
    "al</w>": 121,
    "as": 122,
    "ur": 123,
    "deve": 124,
    "develo": 125,
    "ment</w>": 126,
    "ac": 127,
    "ag": 128,
    "m</w>": 129,
    "ation</w>": 130,
    "l</w>": 131,
    "exper": 132,
    "comp": 133,
    "vi": 134,
    "dat": 135,
    "wit": 136,
    "so": 137,
    "experien": 138,
    "imp": 139,
    "with</w>": 140,
    "th": 141,
    "i</w>": 142,
    "f</w>": 143,
    "in</w>": 144,
    "cl": 145,
    "ti": 146,
    "ex</w>": 147,
    "ve</w>": 148,
    "am": 149,
    "igh": 150,
    "lou": 151,
    "ul": 152,
    "un": 153,
    "(</w>": 154,
    ")</w>": 155,
    "of</w>": 156,
    "ations</w>": 157,
    "tn": 158,
    "clou": 159,
    "tion": 160,
    "tr": 161,
    "for</w>": 162,
    "experience</w>": 163,
    "develop": 164,
    "apex</w>": 165,
    "han": 166,
    "ds</w>": 167,
    "ligh": 168,
    "cloud</w>": 169,
    "lightn": 170,
    "lightning</w>": 171,
    "tom": 172,
    "su": 173,
    "ses</w>": 174,
    "por": 175,
    "compon": 176,
    "componen": 177,
    "li": 178,
    "ity</w>": 179,
    "man": 180,
    "res": 181,
    "int": 182,
    "low": 183,
    "00": 184,
    "ment": 185,
    "wor": 186,
    "work": 187,
    "he": 188,
    "qu": 189,
    "con": 190,
    "cr": 191,
    "imple": 192,
    "ser": 193,
    "ers</w>": 194,
    "ated</w>": 195,
    "si": 196,
    "data</w>": 197,
    "flow": 198,
    "per</w>": 199,
    "ess</w>": 200,
    "ip": 201,
    "cus": 202,
    "jec": 203,
    "components</w>": 204,
    "loy": 205,
    "implement": 206,
    "ad": 207,
    "sc": 208,
    "fi": 209,
    "lea": 210,
    "b</w>": 211,
    "developer</w>": 212,
    "iz": 213,
    "clas": 214,
    "classes</w>": 215,
    "ic</w>": 216,
    "using</w>": 217,
    "el": 218,
    "we": 219,
    "ments</w>": 220,
    "bu": 221,
    "ate</w>": 222,
    "are</w>": 223,
    "manag": 224,
    "ma": 225,
    "servi": 226,
    "service</w>": 227,
    "ient</w>": 228,
    "&</w>": 229,
    "bo": 230,
    "ver": 231,
    "sol": 232,
    "developed</w>": 233,
    "requ": 234,
    "ge</w>": 235,
    "des": 236,
    "tec": 237,
    "ical</w>": 238,
    "20": 239,
    " </w>": 240,
    "ear": 241,
    "custom": 242,
    "bus": 243,
    "busin": 244,
    "business</w>": 245,
    "implemented</w>": 246,
    "gr": 247,
    "ab": 248,
    "c</w>": 249,
    "de</w>": 250,
    "fic": 251,
    "buil": 252,
    "user</w>": 253,
    "proc": 254,
    "the</w>": 255,
    "au": 256,
    "du": 257,
    "ement</w>": 258,
    "ho": 259,
    "str": 260,
    "sales</w>": 261,
    "tions</w>": 262,
    "trig": 263,
    "trigg": 264,
    "ch</w>": 265,
    "se": 266,
    "ob": 267,
    "inte": 268,
    "integr": 269,
    "le</w>": 270,
    "web</w>": 271,
    "crip": 272,
    "ens": 273,
    "k</w>": 274,
    "autom": 275,
    "ction": 276,
    "ile</w>": 277,
    "|</w>": 278,
    "is</w>": 279,
    "is": 280,
    "ding</w>": 281,
    "development</w>": 282,
    "solu": 283,
    "solutions</w>": 284,
    "rest</w>": 285,
    "ppor": 286,
    "lw": 287,
    "lwc</w>": 288,
    "pr": 289,
    "ign": 290,
    "oper": 291,
    "ensur": 292,
    "tech": 293,
    "techn": 294,
    "/</w>": 295,
    "–</w>": 296,
    "or</w>": 297,
    "col": 298,
    "th</w>": 299,
    "flows</w>": 300,
    "cer": 301,
    "fied</w>": 302,
    "impro": 303,
    "leave</w>": 304,
    "il</w>": 305,
    "sion": 306,
    "3</w>": 307,
    "on</w>": 308,
    "deli": 309,
    "deliver": 310,
    "triggers</w>": 311,
    "sche": 312,
    "sched": 313,
    "schedul": 314,
    "log": 315,
    "tim": 316,
    "sec": 317,
    "ject</w>": 318,
    "cor": 319,
    "est</w>": 320,
    "suppor": 321,
    "requi": 322,
    "ss</w>": 323,
    "ms</w>": 324,
    "fu": 325,
    "di": 326,
    "o</w>": 327,
    "ern": 328,
    "pl": 329,
    "2</w>": 330,
    "flow</w>": 331,
    "fun": 332,
    "dep": 333,
    "deploy": 334,
    "management</w>": 335,
    "repor": 336,
    "certi": 337,
    "mm": 338,
    "year": 339,
    "ized</w>": 340,
    "ies</w>": 341,
    "secur": 342,
    "cont": 343,
    "par": 344,
    "require": 345,
    "ow": 346,
    "design": 347,
    "form</w>": 348,
    "ef": 349,
    "effic": 350,
    "operations</w>": 351,
    "technical</w>": 352,
    "ch": 353,
    "202": 354,
    "cre": 355,
    "boar": 356,
    "proces": 357,
    "function": 358,
    "me": 359,
    "te": 360,
    "go": 361,
    "anal": 362,
    "analy": 363,
    "oc": 364,
    "tic": 365,
    "emp": 366,
    "employ": 367,
    "improve</w>": 368,
    "heal": 369,
    "ay": 370,
    "fr": 371,
    "av": 372,
    "soq": 373,
    "soql</w>": 374,
    "ls</w>": 375,
    "leve": 376,
    "level</w>": 377,
    "integrations</w>": 378,
    "jects</w>": 379,
    "requirements</w>": 380,
    "sy": 381,
    "syst": 382,
    "syste": 383,
    "enhan": 384,
    "up": 385,
    "id": 386,
    "trac": 387,
    "1</w>": 388,
    "ath": 389,
    "ke": 390,
    "ross</w>": 391,
    "reports</w>": 392,
    "coll": 393,
    "lin": 394,
    "processes</w>": 395,
    "vid": 396,
    "$</w>": 397,
    ".00": 398,
    "—</w>": 399,
    "prof": 400,
    "ary</w>": 401,
    "hands</w>": 402,
    "stron": 403,
    "strong</w>": 404,
    "working</w>": 405,
    "customized</w>": 406,
    "bat": 407,
    "batch</w>": 408,
    "logic</w>": 409,
    "security</w>": 410,
    "sion</w>": 411,
    "sets</w>": 412,
    "date</w>": 413,
    "ly</w>": 414,
    "ver</w>": 415,
    "side</w>": 416,
    "lds</w>": 417,
    "resp": 418,
    "respon": 419,
    "responsi": 420,
    "age</w>": 421,
    "plat": 422,
    "project</w>": 423,
    "created</w>": 424,
    "bas": 425,
    "built</w>": 426,
    "fe": 427,
    "inter": 428,
    "te</w>": 429,
    "ality</w>": 430,
    "duc": 431,
    "ta": 432,
    "stre": 433,
    "ced</w>": 434,
    "das": 435,
    "dash": 436,
    "dashboar": 437,
    "dashboards</w>": 438,
    "prob": 439,
    "ou": 440,
    "collab": 441,
    "collabor": 442,
    "team": 443,
    "teams</w>": 444,
    "workflows</w>": 445,
    "ting</w>": 446,
    "ves</w>": 447,
    "automation</w>": 448,
    "certified</w>": 449,
    "ai</w>": 450,
    "ance</w>": 451,
    "ai": 452,
    "hour": 453,
    "34": 454,
    "years</w>": 455,
    "min": 456,
    "op": 457,
    "optim": 458,
    "fiel": 459,
    "recor": 460,
    "record</w>": 461,
    "ost": 462,
    "stan": 463,
    "dar": 464,
    "able</w>": 465,
    "support</w>": 466,
    "kn": 467,
    "know": 468,
    "jav": 469,
    "javas": 470,
    "javascrip": 471,
    "javascript</w>": 472,
    "hand": 473,
    "client</w>": 474,
    "design</w>": 475,
    "custo": 476,
    "custom</w>": 477,
    "worked</w>": 478,
    "efficient</w>": 479,
    "cru": 480,
    "ensure</w>": 481,
    "cy</w>": 482,
    "comm": 483,
    "ication</w>": 484,
    "sk": 485,
    "skil": 486,
    "scheduled</w>": 487,
    "ist": 488,
    "ures</w>": 489,
    "code</w>": 490,
    "ent</w>": 491,
    "customer</w>": 492,
    "ay</w>": 493,
    "eng": 494,
    "5</w>": 495,
    "der</w>": 496,
    "indi": 497,
    "an</w>": 498,
    "6</w>": 499,
    "am</w>": 500,
    "pec": 501,
    "best</w>": 502,
    "set</w>": 503,
    "ages</w>": 504,
    "gath": 505,
    "doc": 506,
    "stream": 507,
    "streamlin": 508,
    "deployments</w>": 509,
    "chan": 510,
    "change</w>": 511,
    "ci": 512,
    "ted</w>": 513,
    "’</w>": 514,
    "delivery</w>": 515,
    "compli": 516,
    "compliance</w>": 517,
    "collaborated</w>": 518,
    "provid": 519,
    "health</w>": 520,
    "pat": 521,
    "me</w>": 522,
    "x</w>": 523,
    "tal</w>": 524,
    "hours</w>": 525,
    ".00 </w>": 526,
    "employe": 527,
    "pai": 528,
    "paid</w>": 529,
    "leaves</w>": 530,
    "day": 531,
    "days</w>": 532,
    "agile</w>": 533,
    "amp": 534,
    "ampat": 535,
    "ema": 536,
    "email</w>": 537,
    "com</w>": 538,
    "+</w>": 539,
    "admin": 540,
    "admini": 541,
    "administr": 542,
    "component</w>": 543,
    "quer": 544,
    "contro": 545,
    "perm": 546,
    "field</w>": 547,
    "rul": 548,
    "rules</w>": 549,
    "test</w>": 550,
    "val": 551,
    "objects</w>": 552,
    "ities</w>": 553,
    "nam": 554,
    "apis</w>": 555,
    "ess": 556,
    "ir": 557,
    "knowle": 558,
    "knowled": 559,
    "knowledge</w>": 560,
    "perform</w>": 561,
    "sist": 562,
    "ub": 563,
    "commun": 564,
    "communication</w>": 565,
    "om": 566,
    "omn": 567,
    "ext": 568,
    "ernal</w>": 569,
    "pres": 570,
    "enhanc": 571,
    "updat": 572,
    "updates</w>": 573,
    "gu": 574,
    "reques": 575,
    "requests</w>": 576,
    "care</w>": 577,
    "interf": 578,
    "functionality</w>": 579,
    "en</w>": 580,
    "wh": 581,
    "educ": 582,
    "education</w>": 583,
    "ering</w>": 584,
    "201": 585,
    "gen": 586,
    "'</w>": 587,
    "mo": 588,
    "nad": 589,
    "nadu": 590,
    "nadu</w>": 591,
    "et</w>": 592,
    "ron": 593,
    "basic</w>": 594,
    "experienced</w>": 595,
    "appro": 596,
    "ous</w>": 597,
    "arn": 598,
    "cross</w>": 599,
    "functional</w>": 600,
    "optimiz": 601,
    "spec": 602,
    "speci": 603,
    "ne": 604,
    "ational</w>": 605,
    "docu": 606,
    "od</w>": 607,
    "gear": 608,
    "gearset</w>": 609,
    "ci</w>": 610,
    "cd</w>": 611,
    "asso": 612,
    "associ": 613,
    "associate</w>": 614,
    "boost": 615,
    "booster</w>": 616,
    "fuel": 617,
    "fuels</w>": 618,
    "descrip": 619,
    "description": 620,
    "description</w>": 621,
    "fue": 622,
    "fuel</w>": 623,
    "ders</w>": 624,
    "streamline</w>": 625,
    "ensuring</w>": 626,
    "bil": 627,
    "provided</w>": 628,
    "feat": 629,
    "features</w>": 630,
    "ol": 631,
    "reg": 632,
    "regul": 633,
    "at</w>": 634,
    "systems</w>": 635,
    "mb": 636,
    "india</w>": 637,
    "it</w>": 638,
    "25": 639,
    "employees</w>": 640,
    "time</w>": 641,
    "ernity</w>": 642,
    "kam": 643,
    "kamb": 644,
    "kambh": 645,
    "kambhampat": 646,
    "kambhampati</w>": 647,
    "001": 648,
    "54": 649,
    "@g": 650,
    "@gma": 651,
    "@gmail": 652,
    "@gmail.": 653,
    "@gmail.com</w>": 654,
    "profes": 655,
    "profession": 656,
    "professional</w>": 657,
    "summ": 658,
    "summary</w>": 659,
    "implement</w>": 660,
    "compl": 661,
    "complex</w>": 662,
    "queries</w>": 663,
    "acc": 664,
    "access</w>": 665,
    "profil": 666,
    "profiles</w>": 667,
    "ission</w>": 668,
    "sh": 669,
    "api</w>": 670,
    "standar": 671,
    "standard</w>": 672,
    "as</w>": 673,
    "ful": 674,
    "thir": 675,
    "ty</w>": 676,
    "server</w>": 677,
    "ent": 678,
    "ling</w>": 679,
    "ht": 680,
    "htm": 681,
    "html</w>": 682,
    "system</w>": 683,
    "slds</w>": 684,
    "responsive</w>": 685,
    "frien": 686,
    "friend": 687,
    "friendly</w>": 688,
    "crud</w>": 689,
    "consist": 690,
    "js</w>": 691,
    "skills</w>": 692,
    "ure</w>": 693,
    "sos": 694,
    "sosl</w>": 695,
    "loc": 696,
    "et": 697,
    "external</w>": 698,
    "too": 699,
    "tools</w>": 700,
    "platfor": 701,
    "platforms</w>": 702,
    "pri": 703,
    "present</w>": 704,
    "automate</w>": 705,
    "hel": 706,
    "efficien": 707,
    "ain": 708,
    "interfac": 709,
    "interfaces</w>": 710,
    "used</w>": 711,
    "while</w>": 712,
    "tech</w>": 713,
    "itu": 714,
    "7</w>": 715,
    "sr": 716,
    "sri</w>": 717,
    "ya</w>": 718,
    "colle": 719,
    "college</w>": 720,
    "0</w>": 721,
    "deta": 722,
    "detail": 723,
    "details</w>": 724,
    "war": 725,
    "dh": 726,
    "dhr": 727,
    "dhra</w>": 728,
    "keer": 729,
    "keerth": 730,
    "keerthan": 731,
    "administrat": 732,
    "administrator</w>": 733,
    "tam": 734,
    "000": 735,
    "mob": 736,
    "mobile</w>": 737,
    "ut": 738,
    "fro": 739,
    "from</w>": 740,
    "across</w>": 741,
    "envi": 742,
    "environ": 743,
    "led</w>": 744,
    "tive</w>": 745,
    "contin": 746,
    "continu": 747,
    "continuous</w>": 748,
    "learn": 749,
    "als</w>": 750,
    "process</w>": 751,
    "builder</w>": 752,
    "approv": 753,
    "approval</w>": 754,
    "new": 755,
    "new</w>": 756,
    "ware</w>": 757,
    "ke</w>": 758,
    "deployment</w>": 759,
    "document": 760,
    "control</w>": 761,
    "certific": 762,
    "platform</w>": 763,
    "analys": 764,
    "projects</w>": 765,
    "role</w>": 766,
    "supported</w>": 767,
    "by</w>": 768,
    "its</w>": 769,
    "responsibil": 770,
    "responsibilities</w>": 771,
    "gather</w>": 772,
    "patient</w>": 773,
    "health": 774,
    "healthcare</w>": 775,
    "regulations</w>": 776,
    "prac": 777,
    "practic": 778,
    "practices</w>": 779,
    "partic": 780,
    "form": 781,
    "due</w>": 782,
    "chen": 783,
    "chenn": 784,
    "chennai</w>": 785,
    "acme</w>": 786,
    "ban": 787,
    "total</w>": 788,
    "00</w>": 789,
    "probation": 790,
    "probationary</w>": 791,
    "mon": 792,
    "cal": 793,
    "year</w>": 794,
    "sic": 795,
    "sick</w>": 796,
    "bul": 797,
    "bulk": 798,
    "bulki": 799,
    "bulkified</w>": 800,
    "dx</w>": 801,
    "git</w>": 802,
    "produ": 803,
    "production": 804,
    "production</w>": 805,
    "2023</w>": 806,
    "real</w>": 807,
    "partn": 808,
    "fran": 809,
    "franc": 810,
    "544": 811,
    "crm</w>": 812,
    "implementations</w>": 813,
    "incl": 814,
    "inclu": 815,
    "including</w>": 816,
    "delivering</w>": 817,
    "experti": 818,
    "expertis": 819,
    "expertise</w>": 820,
    "wr": 821,
    "writ": 822,
    "writing</w>": 823,
    "permission</w>": 824,
    "object</w>": 825,
    "shar": 826,
    "sharing</w>": 827,
    "man</w>": 828,
    "vali": 829,
    "validate</w>": 830,
    "acco": 831,
    "accoun": 832,
    "acts</w>": 833,
    "dy": 834,
    "dynam": 835,
    "dynamic</w>": 836,
    "suc": 837,
    "succ": 838,
    "success": 839,
    "successful": 840,
    "successfully</w>": 841,
    "integrated</w>": 842,
    "third</w>": 843,
    "party</w>": 844,
    "und": 845,
    "under": 846,
    "understan": 847,
    "understanding</w>": 848,
    "implementation</w>": 849,
    "handling</w>": 850,
    "css</w>": 851,
    "build</w>": 852,
    "consisten": 853,
    "consistency</w>": 854,
    "mess": 855,
    "message</w>": 856,
    "lms</w>": 857,
    "pub": 858,
    "pubsu": 859,
    "pubsub</w>": 860,
    "omnist": 861,
    "omnistu": 862,
    "omnistudi": 863,
    "omnistudio</w>": 864,
    "omnis": 865,
    "omniscrip": 866,
    "omniscripts</w>": 867,
    "datar": 868,
    "datarap": 869,
    "datarapt": 870,
    "dataraptor": 871,
    "dataraptors</w>": 872,
    "integration</w>": 873,
    "car": 874,
    "ui</w>": 875,
    "aur": 876,
    "aura</w>": 877,
    "az": 878,
    "lim": 879,
    "jun": 880,
    "2022</w>": 881,
    "mar": 882,
    "based</w>": 883,
    "workflow</w>": 884,
    "valid": 885,
    "validations</w>": 886,
    "ups</w>": 887,
    "handle</w>": 888,
    "p</w>": 889,
    "create</w>": 890,
    "ces</w>": 891,
    "tract</w>": 892,
    "fet": 893,
    "fetch</w>": 894,
    "manip": 895,
    "manipul": 896,
    "manipulate</w>": 897,
    "maint": 898,
    "maintain": 899,
    "tri": 900,
    "bac": 901,
    "bachel": 902,
    "bachelor</w>": 903,
    "techno": 904,
    "technolog": 905,
    "technology</w>": 906,
    "mec": 907,
    "inst": 908,
    "institu": 909,
    "institute</w>": 910,
    "engin": 911,
    "engine": 912,
    "engineering</w>": 913,
    "name</w>": 914,
    "nag": 915,
    "eswar": 916,
    "ther</w>": 917,
    "ko": 918,
    "amm": 919,
    "location</w>": 920,
    "esh</w>": 921,
    "keerthana</w>": 922,
    "anb": 923,
    "anbur": 924,
    "anbura": 925,
    "anburaj": 926,
    "inam</w>": 927,
    "0001": 928,
    "comput": 929,
    "computer</w>": 930,
    "appl": 931,
    "arts</w>": 932,
    "scien": 933,
    "science</w>": 934,
    "att": 935,
    "%</w>": 936,
    "over</w>": 937,
    "izing</w>": 938,
    "skilled</w>": 939,
    "active</w>": 940,
    "proble": 941,
    "problem</w>": 942,
    "ving</w>": 943,
    "learning</w>": 944,
    "track</w>": 945,
    "ating</w>": 946,
    "goals</w>": 947,
    "optimize</w>": 948,
    "special": 949,
    "enhance</w>": 950,
    "ri": 951,
    "produc": 952,
    "sof": 953,
    "soft": 954,
    "software</w>": 955,
    "ycl": 956,
    "gathering</w>": 957,
    "analysi": 958,
    "analysis</w>": 959,
    "documentation</w>": 960,
    "good</w>": 961,
    "lan": 962,
    "langu": 963,
    "languages</w>": 964,
    "serv": 965,
    "servic": 966,
    "services</w>": 967,
    "clouds</w>": 968,
    "visu": 969,
    "visual": 970,
    "visualforce</w>": 971,
    "reporting</w>": 972,
    "analytic": 973,
    "analytics</w>": 974,
    "certifications</w>": 975,
    "employment</w>": 976,
    "enhancing</w>": 977,
    "orders</w>": 978,
    "fle": 979,
    "fleet</w>": 980,
    "via</w>": 981,
    "city</w>": 982,
    "specif": 983,
    "specific</w>": 984,
    "permits</w>": 985,
    "track": 986,
    "tracking</w>": 987,
    "scheduling</w>": 988,
    "conf": 989,
    "config": 990,
    "configur": 991,
    "configured</w>": 992,
    "align": 993,
    "environment</w>": 994,
    "tro": 995,
    "troub": 996,
    "troubl": 997,
    "troubles": 998,
    "troublesho": 999,
    "ax": 1000,
    "axen": 1001,
    "axena</w>": 1002,
    "wo": 1003,
    "women": 1004,
    "women</w>": 1005,
    "automated</w>": 1006,
    "fol": 1007,
    "follow": 1008,
    "efficiency</w>": 1009,
    "engag": 1010,
    "engagement</w>": 1011,
    "managed</w>": 1012,
    "goes</w>": 1013,
    "home</w>": 1014,
    "gener": 1015,
    "generation</w>": 1016,
    "deb": 1017,
    "debt</w>": 1018,
    "analysed</w>": 1019,
    "exist": 1020,
    "existing</w>": 1021,
    "iden": 1022,
    "identi": 1023,
    "are": 1024,
    "areas</w>": 1025,
    "sta": 1026,
    "stake": 1027,
    "stakeho": 1028,
    "stakehol": 1029,
    "stakeholders</w>": 1030,
    "that</w>": 1031,
    "team</w>": 1032,
    "memb": 1033,
    "members</w>": 1034,
    "decl": 1035,
    "her": 1036,
    "here": 1037,
    "inform": 1038,
    "information</w>": 1039,
    "rec": 1040,
    "be": 1041,
    "tax</w>": 1042,
    "inv": 1043,
    "2026": 1044,
    "2026-": 1045,
    "tamil</w>": 1046,
    "end": 1047,
    "lt": 1048,
    "ltd</w>": 1049,
    ".00</w>": 1050,
    "10</w>": 1051,
    "250": 1052,
    "250.00 </w>": 1053,
    "sub": 1054,
    "pay": 1055,
    "payment</w>": 1056,
    "bank</w>": 1057,
    "national</w>": 1058,
    "234": 1059,
    "sc</w>": 1060,
    "pol": 1061,
    "polic": 1062,
    "policy</w>": 1063,
    "peri": 1064,
    "period</w>": 1065,
    "all</w>": 1066,
    "ot</w>": 1067,
    "cas": 1068,
    "casu": 1069,
    "casual</w>": 1070,
    "ive</w>": 1071,
    "calen": 1072,
    "calendar": 1073,
    "calendar</w>": 1074,
    "dit": 1075,
    "dition": 1076,
    "mat": 1077,
    "maternity</w>": 1078,
    "paternity</w>": 1079,
    "wee": 1080,
    "week": 1081,
    "weeks</w>": 1082,
    "mah": 1083,
    "hu": 1084,
    "scre": 1085,
    "screen</w>": 1086,
    "trigger": 1087,
    "triggered</w>": 1088,
    "pip": 1089,
    "pipel": 1090,
    "pipelin": 1091,
    "pipelines</w>": 1092,
    "cop": 1093,
    "copad": 1094,
    "copado</w>": 1095,
    "cover": 1096,
    "coverage</w>": 1097,
    "ru": 1098,
    "rudhra</w>": 1099,
    "inf": 1100,
    "info</w>": 1101,
    "oct</w>": 1102,
    "pages</w>": 1103,
    "particip": 1104,
    "participated</w>": 1105,
    "spr": 1106,
    "sprin": 1107,
    "sprint</w>": 1108,
    "partner</w>": 1109,
    "portal</w>": 1110,
    "secure</w>": 1111,
    "vidya</w>": 1112
}